<unk>	0
<s>	0
</s>	0
<pad>	0
▁	-3.21229
s	-3.27011
,	-3.39989
▁the	-3.45381
e	-3.77195
▁of	-3.8568
▁and	-4.05316
i	-4.09075
t	-4.10067
.	-4.15811
d	-4.20949
▁to	-4.2679
r	-4.33426
m	-4.35535
▁a	-4.36279
▁in	-4.42176
o	-4.42577
ed	-4.56313
ing	-4.57346
p	-4.57709
y	-4.59386
a	-4.6468
▁is	-4.66239
c	-4.70006
er	-4.70664
u	-4.71215
n	-4.76707
l	-4.77588
▁be	-4.78532
f	-4.88301
▁s	-4.8835
g	-4.90591
ar	-5.01862
▁he	-5.05682
al	-5.09755
in	-5.10901
▁that	-5.10933
th	-5.12183
;	-5.13847
b	-5.23255
▁f	-5.24963
▁which	-5.29561
▁not	-5.30802
ly	-5.31861
▁p	-5.32724
▁I	-5.32764
le	-5.37386
re	-5.37487
▁or	-5.40069
▁are	-5.41386
or	-5.42792
:	-5.44445
k	-5.44726
▁re	-5.45263
▁as	-5.45881
en	-5.46014
h	-5.48637
es	-5.50729
ic	-5.53874
▁for	-5.53938
us	-5.54007
▁you	-5.54117
it	-5.56525
st	-5.69052
▁c	-5.70187
▁w	-5.71987
▁who	-5.72079
an	-5.74399
?	-5.77628
ce	-5.791
on	-5.7995
v	-5.8085
▁have	-5.81388
▁de	-5.84085
▁by	-5.85167
▁they	-5.87642
▁we	-5.88151
▁The	-5.88943
at	-5.91958
▁b	-5.93082
ent	-5.95174
▁con	-5.95697
w	-5.96993
▁with	-5.99255
tion	-5.99694
▁his	-6.00026
▁do	-6.01184
▁but	-6.03238
▁will	-6.03894
▁all	-6.04731
ion	-6.09549
▁man	-6.09886
is	-6.0995
ne	-6.10105
▁them	-6.10221
▁no	-6.10881
ter	-6.12858
▁one	-6.14032
la	-6.14853
as	-6.15269
ol	-6.16371
ur	-6.16904
ation	-6.1795
▁this	-6.18987
▁other	-6.21051
ve	-6.24855
▁at	-6.25334
▁their	-6.25495
▁pro	-6.25896
▁ex	-6.27574
un	-6.28213
▁A	-6.28517
▁And	-6.2869
▁if	-6.29824
▁it	-6.32019
et	-6.33473
el	-6.34783
▁from	-6.35039
▁an	-6.37099
▁S	-6.38467
▁any	-6.41107
▁has	-6.41384
ro	-6.42283
▁what	-6.43381
T	-6.43643
ch	-6.4397
ity	-6.44438
▁me	-6.44449
▁may	-6.44623
ive	-6.45739
il	-6.45792
ow	-6.47179
ut	-6.47521
▁him	-6.49099
ence	-6.49469
▁was	-6.49794
ate	-6.49887
)	-6.50539
ra	-6.50832
▁(	-6.51043
ad	-6.51186
ha	-6.51927
▁di	-6.52227
om	-6.54774
▁so	-6.57288
he	-6.57444
▁say	-6.57496
▁when	-6.58673
▁there	-6.58725
ist	-6.58766
ta	-6.5909
▁dis	-6.5949
ect	-6.61412
▁mo	-6.61568
pp	-6.61778
▁good	-6.61928
'	-6.63723
est	-6.63838
▁h	-6.64605
"	-6.64778
▁on	-6.65028
▁us	-6.66172
E	-6.66669
ant	-6.66712
our	-6.66928
▁un	-6.67798
▁would	-6.68028
▁im	-6.68271
ies	-6.68277
able	-6.69096
ac	-6.69168
O	-6.70123
L	-6.70551
▁co	-6.70916
ul	-6.71572
-	-6.73996
end	-6.74097
os	-6.74602
▁C	-6.74886
ig	-6.75032
▁P	-6.76028
▁some	-6.77855
tr	-6.78215
ure	-6.78924
vi	-6.79063
▁tr	-6.80465
▁only	-6.82178
▁should	-6.8294
act	-6.83433
ell	-6.83838
▁more	-6.83896
ment	-6.84121
age	-6.849
▁see	-6.85341
x	-6.85787
▁than	-6.86297
▁said	-6.8771
▁like	-6.88299
▁pre	-6.89219
▁men	-6.90004
ver	-6.90258
▁great	-6.90291
▁W	-6.91035
ance	-6.91161
ness	-6.91169
▁ma	-6.91441
▁shall	-6.91621
▁li	-6.92221
▁were	-6.95483
▁go	-6.958
▁our	-6.96567
▁But	-6.96634
--	-6.97773
▁must	-6.98859
ian	-6.99585
▁v	-7.00832
▁can	-7.02468
▁been	-7.05316
▁law	-7.05469
ish	-7.05489
ough	-7.06194
ill	-7.06849
▁part	-7.07205
▁He	-7.07644
▁my	-7.07672
▁same	-7.07851
▁these	-7.08036
▁also	-7.08421
▁state	-7.09018
▁into	-7.0925
▁ch	-7.09643
ph	-7.10462
▁'	-7.10802
R	-7.13077
1	-7.13263
▁another	-7.13608
G	-7.13793
▁such	-7.14586
▁know	-7.16084
H	-7.16197
▁M	-7.17057
ight	-7.17619
▁things	-7.18022
▁comp	-7.18765
▁Socrates	-7.21113
▁those	-7.21172
▁mean	-7.21349
▁nature	-7.21401
ever	-7.21612
▁true	-7.22796
▁soul	-7.22918
ide	-7.24257
▁about	-7.24732
▁had	-7.24994
▁out	-7.25206
▁first	-7.2641
▁SOCRATES	-7.26561
less	-7.27343
▁time	-7.27688
ious	-7.28179
ful	-7.29686
—	-7.29727
▁own	-7.31287
j	-7.32868
▁lo	-7.35747
▁make	-7.372
I	-7.37366
▁life	-7.37583
▁again	-7.3813
▁Plato	-7.39464
▁ho	-7.42483
▁str	-7.42789
▁now	-7.4402
▁two	-7.44046
▁No	-7.44211
’	-7.44403
▁art	-7.45203
▁mind	-7.46506
▁give	-7.46976
▁how	-7.47422
▁way	-7.48256
▁let	-7.48909
D	-7.50327
▁take	-7.52428
▁knowledge	-7.53604
▁every	-7.54377
▁think	-7.57157
2	-7.5728
▁most	-7.58356
▁up	-7.58759
B	-7.59016
▁mi	-7.59519
▁love	-7.60548
▁reason	-7.60549
▁word	-7.60757
▁himself	-7.60925
▁right	-7.61604
S	-7.62671
▁Yes	-7.63657
▁just	-7.64031
▁well	-7.64454
▁For	-7.64498
▁place	-7.64852
N	-7.65049
▁because	-7.65643
▁virtue	-7.66632
▁whether	-7.66722
▁gr	-7.6749
ward	-7.69234
▁God	-7.69428
▁speak	-7.7036
▁upon	-7.7048
▁friend	-7.70548
▁evil	-7.7088
▁very	-7.71464
z	-7.72349
▁power	-7.7275
▁world	-7.73021
CLE	-7.73464
▁idea	-7.75071
▁person	-7.75954
▁both	-7.762
▁call	-7.76512
▁body	-7.77001
▁THEAETETUS	-7.77201
[	-7.77653
]	-7.77653
▁truth	-7.77822
▁cannot	-7.7877
ught	-7.80105
▁pass	-7.8023
3	-7.80519
▁kind	-7.81252
▁either	-7.82564
▁made	-7.82602
▁answer	-7.84436
▁pleasure	-7.8514
▁after	-7.85746
‘	-7.85904
▁under	-7.86171
IAS	-7.86233
▁ought	-7.87144
qua	-7.87227
▁order	-7.87955
▁ATHENIAN	-7.88625
▁better	-7.88883
▁over	-7.89039
▁without	-7.90916
▁come	-7.91906
A	-7.92521
▁having	-7.92646
▁never	-7.92977
▁follow	-7.93174
▁opinion	-7.93587
▁question	-7.94717
▁case	-7.96482
▁appear	-7.96712
IN	-7.9681
▁yet	-7.96955
▁sort	-7.9718
V	-7.97446
▁therefore	-7.99246
▁manner	-7.99506
▁even	-8.00142
▁suppose	-8.01589
▁human	-8.01653
4	-8.0191
▁general	-8.02425
▁sense	-8.03286
▁number	-8.03399
▁before	-8.03468
▁work	-8.03943
▁each	-8.0406
▁might	-8.04701
▁justice	-8.05465
▁name	-8.0665
▁State	-8.06664
▁certain	-8.06987
▁citizen	-8.07325
▁always	-8.07597
▁principle	-8.07665
▁matter	-8.08912
▁desire	-8.08971
▁equal	-8.09869
▁much	-8.10219
▁consider	-8.11624
F	-8.11748
▁honour	-8.13632
▁What	-8.1393
▁rule	-8.14733
▁common	-8.15011
▁themselves	-8.15525
▁become	-8.15601
0	-8.1582
▁between	-8.16264
▁pain	-8.17039
▁object	-8.17684
5	-8.17835
▁hand	-8.1946
▁could	-8.20518
▁high	-8.21385
▁rather	-8.22071
8	-8.22148
▁year	-8.22566
▁character	-8.26574
▁found	-8.27069
▁different	-8.27151
▁philosophy	-8.27483
▁long	-8.29854
▁argument	-8.2992
▁class	-8.30523
▁earth	-8.30789
▁day	-8.30968
TRAN	-8.31118
▁among	-8.31206
▁Certainly	-8.3347
▁view	-8.33472
▁agree	-8.33769
▁three	-8.33835
▁children	-8.34
6	-8.35789
7	-8.42794
9	-8.44158
C	-8.45397
”	-8.53831
Y	-8.56637
!	-8.71128
P	-8.78982
_	-8.83268
J	-8.87414
W	-8.88376
M	-9.05864
}	-9.1024
K	-9.11964
=	-9.17526
X	-9.3272
Z	-9.49231
/	-10.6194
ι	-11.1273
ν	-11.3704
æ	-11.4871
α	-11.5079
ο	-11.5731
τ	-11.5959
(	-11.7043
+	-11.7991
κ	-11.8874
ς	-12.0544
λ	-12.0914
ε	-12.1299
|	-12.1299
π	-12.1699
σ	-12.1699
μ	-12.2116
ρ	-12.3005
δ	-12.3481
η	-12.3981
έ	-12.4508
ὴ	-12.5063
γ	-12.5063
χ	-12.8427
ί	-13.0169
â	-13.0169
ά	-13.1169
ό	-13.4959
ῶ	-13.4959
β	-13.4959
θ	-13.6625
ὸ	-13.6625
φ	-13.6625
ω	-14.1125
ὰ	-14.1125
ή	-14.4459
ἴ	-14.4459
ἅ	-14.9459
#	-14.9459
>	-14.9459
£	-14.9459
ä	-14.9459
ξ	-14.9459
ύ	-14.9459
ὶ	-14.9459
ῷ	-14.9459
œ	-14.9459
ῳ	-15.9445
Ἀ	-15.9446
ἀ	-15.9447
ἐ	-15.9448
υ	-15.9449
ὐ	-15.945
&	-15.9451
ἰ	-15.9452
ώ	-15.9453
*	-15.9454
Q	-15.9455
{	-15.9456
“	-15.9457
U	-15.9458
Α	-15.9459
ῖ	-15.9459
ἕ	-15.9459
ἡ	-15.9459
ἶ	-15.9459
ὅ	-15.9459
ὗ	-15.9459
ῦ	-15.9459
q	-15.9459
Æ	-15.9459
